#ifndef ROAD_ANALYTICS_MODEL_EXTREME_END_HARDWARE_H
#define ROAD_ANALYTICS_MODEL_EXTREME_END_HARDWARE_H


unsigned int road_analytics_model_extreme_end_hardware_len = 4144;
unsigned char road_analytics_model_extreme_end_hardware[] = {
 0x24, 0x00, 0x00, 0x00, 0x54, 0x46, 0x4c, 0x33, 0x00, 0x00, 0x00, 0x00,
  0x00, 0x00, 0x00, 0x00, 0x00, 0x00, 0x12, 0x00, 0x1c, 0x00, 0x04, 0x00,
  0x08, 0x00, 0x0c, 0x00, 0x10, 0x00, 0x14, 0x00, 0x00, 0x00, 0x18, 0x00,
  0x12, 0x00, 0x00, 0x00, 0x03, 0x00, 0x00, 0x00, 0xc4, 0x0f, 0x00, 0x00,
  0x7c, 0x07, 0x00, 0x00, 0x64, 0x07, 0x00, 0x00, 0x3c, 0x00, 0x00, 0x00,
  0x04, 0x00, 0x00, 0x00, 0x01, 0x00, 0x00, 0x00, 0x0c, 0x00, 0x00, 0x00,
  0x08, 0x00, 0x0c, 0x00, 0x04, 0x00, 0x08, 0x00, 0x08, 0x00, 0x00, 0x00,
  0x08, 0x00, 0x00, 0x00, 0x12, 0x00, 0x00, 0x00, 0x13, 0x00, 0x00, 0x00,
  0x6d, 0x69, 0x6e, 0x5f, 0x72, 0x75, 0x6e, 0x74, 0x69, 0x6d, 0x65, 0x5f,
  0x76, 0x65, 0x72, 0x73, 0x69, 0x6f, 0x6e, 0x00, 0x13, 0x00, 0x00, 0x00,
  0x14, 0x07, 0x00, 0x00, 0x00, 0x07, 0x00, 0x00, 0xd4, 0x06, 0x00, 0x00,
  0x90, 0x06, 0x00, 0x00, 0x3c, 0x06, 0x00, 0x00, 0x08, 0x06, 0x00, 0x00,
  0xf4, 0x05, 0x00, 0x00, 0x50, 0x05, 0x00, 0x00, 0x7c, 0x04, 0x00, 0x00,
  0x68, 0x02, 0x00, 0x00, 0xd4, 0x00, 0x00, 0x00, 0xa0, 0x00, 0x00, 0x00,
  0x94, 0x00, 0x00, 0x00, 0x80, 0x00, 0x00, 0x00, 0x6c, 0x00, 0x00, 0x00,
  0x58, 0x00, 0x00, 0x00, 0x44, 0x00, 0x00, 0x00, 0x30, 0x00, 0x00, 0x00,
  0x04, 0x00, 0x00, 0x00, 0x76, 0xf9, 0xff, 0xff, 0x04, 0x00, 0x00, 0x00,
  0x10, 0x00, 0x00, 0x00, 0x31, 0x2e, 0x31, 0x34, 0x2e, 0x30, 0x00, 0x00,
  0x00, 0x00, 0x00, 0x00, 0x00, 0x00, 0x00, 0x00, 0x00, 0x00, 0x00, 0x00,
  0x00, 0x00, 0x00, 0x00, 0x00, 0x00, 0x00, 0x00, 0x20, 0xf1, 0xff, 0xff,
  0x00, 0x00, 0x00, 0x00, 0x00, 0x00, 0x00, 0x00, 0x00, 0x00, 0x00, 0x00,
  0x30, 0xf1, 0xff, 0xff, 0x00, 0x00, 0x00, 0x00, 0x00, 0x00, 0x00, 0x00,
  0x00, 0x00, 0x00, 0x00, 0x40, 0xf1, 0xff, 0xff, 0x00, 0x00, 0x00, 0x00,
  0x00, 0x00, 0x00, 0x00, 0x00, 0x00, 0x00, 0x00, 0x50, 0xf1, 0xff, 0xff,
  0x00, 0x00, 0x00, 0x00, 0x00, 0x00, 0x00, 0x00, 0x00, 0x00, 0x00, 0x00,
  0x60, 0xf1, 0xff, 0xff, 0x00, 0x00, 0x00, 0x00, 0x00, 0x00, 0x00, 0x00,
  0x00, 0x00, 0x00, 0x00, 0x70, 0xf1, 0xff, 0xff, 0x00, 0x00, 0x00, 0x00,
  0xf6, 0xf9, 0xff, 0xff, 0x04, 0x00, 0x00, 0x00, 0x18, 0x00, 0x00, 0x00,
  0x31, 0x5a, 0x45, 0x3f, 0xc6, 0xc3, 0x45, 0xbf, 0x84, 0x34, 0xc3, 0x3e,
  0xee, 0x91, 0x02, 0xbf, 0xd1, 0x7c, 0x04, 0x3f, 0xcc, 0x26, 0xf6, 0x3e,
  0x00, 0x00, 0x00, 0x00, 0x00, 0x00, 0x00, 0x00, 0x00, 0x00, 0x00, 0x00,
  0x26, 0xfa, 0xff, 0xff, 0x04, 0x00, 0x00, 0x00, 0x80, 0x01, 0x00, 0x00,
  0x99, 0x6e, 0xc4, 0xbe, 0x0c, 0xfe, 0xec, 0x3e, 0xf6, 0xff, 0x70, 0xbe,
  0x3b, 0x2c, 0x05, 0x3f, 0x3f, 0xb1, 0xd0, 0x3e, 0x76, 0xb4, 0x0d, 0x3f,
  0x48, 0x53, 0x8f, 0xbe, 0xe7, 0x5f, 0x1f, 0x3f, 0x09, 0xf2, 0xd5, 0x3e,
  0x4b, 0x63, 0x05, 0xbd, 0x1e, 0x3d, 0x9a, 0xbd, 0xc7, 0x0a, 0x6f, 0x3d,
  0x15, 0x2f, 0x0b, 0x3f, 0xbf, 0x13, 0x48, 0x3f, 0x4f, 0xed, 0x88, 0x3e,
  0x58, 0x51, 0x19, 0xbf, 0xe7, 0x87, 0x02, 0x3e, 0xb9, 0x77, 0x56, 0xbf,
  0x2a, 0x0c, 0xe2, 0xbc, 0x29, 0xe8, 0x01, 0xbf, 0x00, 0xbe, 0x32, 0x3f,
  0x82, 0x66, 0xd4, 0xbe, 0x27, 0xd7, 0x87, 0x3f, 0x3e, 0xef, 0xd6, 0xbd,
  0x77, 0xb4, 0xa1, 0x3d, 0xf3, 0x39, 0x51, 0x3f, 0x6e, 0x01, 0x2b, 0xbe,
  0xa7, 0x05, 0xc3, 0x3e, 0x1a, 0x5f, 0x43, 0x3e, 0xce, 0xb2, 0xe8, 0xbe,
  0xfb, 0xe3, 0xf5, 0xbe, 0x95, 0x34, 0x1c, 0x3f, 0x80, 0x14, 0xf6, 0x3e,
  0x9d, 0x25, 0xa7, 0x3e, 0xab, 0xe1, 0xfd, 0xbe, 0x9f, 0xcc, 0xe9, 0x3e,
  0xd9, 0xf3, 0x6a, 0xbd, 0x62, 0x7a, 0x83, 0x3e, 0xec, 0xc3, 0x1d, 0x3d,
  0x9d, 0x6a, 0x05, 0x3b, 0xa0, 0x18, 0x09, 0x3f, 0xd8, 0xd9, 0x25, 0xbe,
  0xcb, 0xd5, 0x2c, 0x3f, 0x8d, 0xfd, 0xd0, 0x3d, 0x05, 0x7d, 0x34, 0xbd,
  0x6c, 0xe1, 0x51, 0xbe, 0x2c, 0xd5, 0xc1, 0x3e, 0xdd, 0xc4, 0x8d, 0xbd,
  0xde, 0xb7, 0xa7, 0x3e, 0xba, 0xec, 0x0f, 0xbf, 0xbd, 0xbb, 0x44, 0x3e,
  0x7b, 0xa8, 0xbf, 0x3d, 0x34, 0x65, 0x15, 0xbf, 0x94, 0x06, 0x9c, 0x3e,
  0x4d, 0x05, 0xe6, 0xbe, 0xdb, 0x59, 0x90, 0xbd, 0xa9, 0x23, 0x87, 0x3e,
  0x07, 0x82, 0x81, 0xbe, 0x2a, 0xb2, 0x65, 0x3e, 0xc4, 0x17, 0x4f, 0xbe,
  0x24, 0x62, 0xb3, 0xbd, 0x9a, 0xf8, 0x34, 0x3e, 0xd2, 0x69, 0x4d, 0xbe,
  0xe2, 0x5b, 0x6c, 0xbe, 0xb7, 0xa4, 0xeb, 0x3d, 0xa8, 0x9d, 0x39, 0x3f,
  0xb5, 0xb2, 0x13, 0xbf, 0x30, 0xfc, 0x1a, 0x3e, 0xb5, 0xd3, 0x32, 0xbe,
  0x30, 0x2d, 0xbd, 0x3e, 0x80, 0x23, 0xde, 0xbe, 0x9b, 0x7e, 0x85, 0xbe,
  0x4a, 0x44, 0xe7, 0x3e, 0x44, 0xe9, 0x05, 0xbd, 0xec, 0x6b, 0x9e, 0x3e,
  0x27, 0xae, 0xaf, 0x3c, 0x4a, 0xce, 0x73, 0x3e, 0x51, 0xc8, 0x10, 0x3f,
  0x2e, 0xdc, 0xa2, 0xbe, 0x34, 0x06, 0x8c, 0x3e, 0xff, 0x0f, 0x05, 0x3f,
  0xa9, 0xaa, 0x50, 0x3f, 0xad, 0xa8, 0xf4, 0xbc, 0xa4, 0xe6, 0xc4, 0x3e,
  0x1e, 0x93, 0x94, 0xbe, 0x40, 0xae, 0x13, 0xbe, 0x4b, 0x2d, 0xe0, 0xbe,
  0x0d, 0xc9, 0xf3, 0x3e, 0x33, 0x5e, 0xe1, 0xbd, 0x39, 0xb5, 0x99, 0xbe,
  0x49, 0x40, 0x3c, 0x3e, 0xe9, 0x62, 0xef, 0x3e, 0x27, 0x92, 0xb0, 0x3e,
  0x7b, 0x49, 0x0d, 0x3f, 0xb2, 0xe4, 0xd9, 0x3e, 0x35, 0xea, 0x41, 0x3e,
  0x00, 0x00, 0x00, 0x00, 0xb6, 0xfb, 0xff, 0xff, 0x04, 0x00, 0x00, 0x00,
  0x00, 0x02, 0x00, 0x00, 0x2d, 0x36, 0xaa, 0x3e, 0x34, 0xe7, 0x59, 0x3e,
  0x3e, 0x60, 0xdd, 0x3d, 0x3a, 0x93, 0x60, 0xbd, 0x3d, 0xb9, 0x01, 0xbe,
  0xd7, 0x0f, 0x03, 0xbf, 0xa1, 0xe8, 0xb3, 0x3d, 0x11, 0x76, 0xf4, 0xbe,
  0x64, 0xdc, 0x1d, 0x3e, 0x66, 0xa5, 0x0a, 0x3e, 0x82, 0xa0, 0xb1, 0xbe,
  0x98, 0xf5, 0xb9, 0x3e, 0x35, 0x2a, 0x26, 0xbf, 0xe0, 0x3e, 0x08, 0x3f,
  0x40, 0x65, 0x89, 0xbe, 0x95, 0x33, 0x79, 0xbd, 0x02, 0x66, 0x7e, 0x3e,
  0x6c, 0xab, 0xd4, 0xbd, 0x34, 0xea, 0x38, 0x3f, 0x07, 0x59, 0x34, 0xbe,
  0x52, 0x0a, 0x94, 0xbd, 0x46, 0xb8, 0xe4, 0xbe, 0x11, 0x78, 0xce, 0x3e,
  0xb5, 0x12, 0xa8, 0x3e, 0xc7, 0x44, 0x8f, 0x3e, 0x0e, 0x75, 0xd1, 0x3e,
  0xa0, 0xfb, 0x88, 0xbe, 0xcd, 0x49, 0xc7, 0x3e, 0xe1, 0xa7, 0xd8, 0xbe,
  0xc4, 0x7c, 0x3e, 0xbd, 0x40, 0x37, 0x1a, 0x3f, 0x3d, 0x5c, 0x74, 0xbd,
  0xa4, 0xe4, 0x69, 0x3e, 0xe2, 0x4e, 0xb2, 0x3d, 0x8c, 0x65, 0xe4, 0x3e,
  0x64, 0x7c, 0xe1, 0xbc, 0x64, 0xf8, 0x85, 0x3f, 0x2b, 0x3d, 0x04, 0x3f,
  0x36, 0xb7, 0xde, 0xbd, 0xf9, 0x1c, 0xf3, 0x3e, 0x5b, 0x22, 0xe8, 0x3e,
  0x19, 0x47, 0x03, 0x3f, 0xf9, 0xb0, 0x49, 0xbf, 0x8a, 0xd0, 0x6b, 0x3f,
  0x66, 0xb9, 0x21, 0xbf, 0x52, 0xa4, 0x81, 0x3e, 0x7b, 0xf4, 0x03, 0x3f,
  0x2e, 0xd4, 0xb5, 0xbe, 0x6b, 0xa6, 0x0e, 0xbf, 0xf7, 0x69, 0x57, 0xbe,
  0x37, 0x77, 0x56, 0x3f, 0x06, 0x46, 0xce, 0x3d, 0x01, 0x5f, 0x40, 0x3f,
  0x2e, 0x8b, 0x4b, 0x3e, 0xc1, 0x5c, 0x2c, 0xbe, 0x08, 0x19, 0xae, 0x3d,
  0x7b, 0xfd, 0x17, 0x3f, 0xf3, 0x4b, 0x87, 0xbe, 0x10, 0xb2, 0x68, 0xbf,
  0x8b, 0x5c, 0xcb, 0x3e, 0xef, 0x89, 0x6c, 0xbf, 0xb1, 0x51, 0x35, 0xbb,
  0x7d, 0xe1, 0xd2, 0x3e, 0x9e, 0xee, 0x08, 0x3f, 0x92, 0x09, 0xbe, 0x3e,
  0x65, 0xb3, 0xed, 0xbc, 0x22, 0x7f, 0x67, 0xbe, 0x84, 0xd0, 0xe6, 0x3e,
  0x24, 0xb4, 0x1e, 0xbf, 0x6f, 0x91, 0x05, 0x3f, 0x0c, 0x61, 0x08, 0xbe,
  0x5c, 0x75, 0xf6, 0x3e, 0x57, 0x93, 0x10, 0xbe, 0xab, 0x00, 0x0b, 0xbf,
  0xc6, 0x4b, 0x81, 0x3f, 0x87, 0xd9, 0x3c, 0xbf, 0xb8, 0x50, 0xa1, 0x3f,
  0x41, 0xa4, 0x23, 0x3f, 0xeb, 0xa9, 0xe5, 0x3e, 0xcb, 0xd1, 0x0f, 0x3e,
  0x87, 0x8b, 0xa9, 0x3e, 0xc8, 0xfb, 0x05, 0xbe, 0x38, 0xe1, 0x04, 0xbf,
  0xf3, 0x5a, 0x0b, 0x3f, 0xf8, 0xf1, 0x5c, 0x3e, 0x2b, 0x2a, 0x0d, 0xbf,
  0xdf, 0x92, 0x7e, 0xbd, 0xcc, 0x8f, 0x93, 0x3d, 0xd1, 0x5b, 0xe4, 0x3e,
  0x61, 0x30, 0xba, 0x3e, 0x77, 0x1e, 0x5d, 0xbf, 0x39, 0x21, 0x2a, 0x3f,
  0x65, 0x99, 0xd8, 0x3e, 0x2f, 0x0d, 0x99, 0x3e, 0x1c, 0xf5, 0x00, 0x3f,
  0xa2, 0xaa, 0x5d, 0x3f, 0xe9, 0x64, 0x85, 0xbe, 0x2b, 0xdb, 0xca, 0x3e,
  0x9f, 0xc5, 0xe3, 0xbe, 0x6f, 0x84, 0x8f, 0x3d, 0x7c, 0x98, 0x20, 0xbf,
  0xb4, 0xfd, 0xa1, 0x3d, 0x74, 0x25, 0x23, 0x3f, 0xf8, 0x14, 0x17, 0x3f,
  0x0a, 0x93, 0x5d, 0x3e, 0xeb, 0xca, 0x94, 0xbd, 0x86, 0x73, 0x7e, 0xbf,
  0xa9, 0x24, 0xb6, 0x3e, 0x43, 0x4a, 0x5a, 0xbf, 0xe3, 0xb6, 0x82, 0xbd,
  0x16, 0x9f, 0xe8, 0x3e, 0x1d, 0x4c, 0xb6, 0x3e, 0x29, 0xf1, 0x68, 0xbe,
  0xa4, 0x42, 0xce, 0xbe, 0x80, 0xd5, 0x67, 0xbe, 0xc4, 0xb3, 0x93, 0x3e,
  0xd2, 0xfe, 0xc6, 0x3e, 0x67, 0x24, 0xc8, 0xbc, 0x75, 0x4d, 0x4e, 0xbc,
  0xb9, 0xb9, 0xaa, 0xbe, 0x4f, 0xaf, 0xb5, 0x3e, 0x0b, 0xbe, 0x04, 0xbf,
  0x2e, 0xd1, 0x44, 0x3f, 0x79, 0xe6, 0x3f, 0xbf, 0x7a, 0x7b, 0x84, 0x3f,
  0xbb, 0x4f, 0x12, 0x3f, 0xe0, 0x23, 0xaa, 0x3e, 0x48, 0x8b, 0x29, 0xbe,
  0x00, 0x00, 0x00, 0x00, 0xc6, 0xfd, 0xff, 0xff, 0x04, 0x00, 0x00, 0x00,
  0xc0, 0x00, 0x00, 0x00, 0xde, 0x2d, 0xd1, 0x3c, 0xbd, 0xb8, 0xd4, 0x3e,
  0x30, 0x0c, 0xde, 0x3e, 0xc9, 0xf5, 0x3f, 0x3f, 0x75, 0x52, 0x32, 0xbf,
  0x91, 0xda, 0x33, 0x3f, 0x17, 0xad, 0x1a, 0xbf, 0x94, 0xee, 0x6a, 0x3e,
  0xcf, 0x5d, 0xa5, 0x3e, 0x6d, 0x4d, 0xf1, 0x3e, 0x43, 0x4a, 0x44, 0x3f,
  0x46, 0xef, 0xd2, 0xbe, 0xb4, 0x2a, 0x32, 0xbf, 0xaa, 0xeb, 0xa6, 0x3d,
  0xa5, 0x97, 0x80, 0x3e, 0x98, 0x24, 0x23, 0xbf, 0x76, 0x32, 0x4c, 0xbf,
  0x32, 0xd6, 0x0e, 0x3f, 0x37, 0x09, 0x13, 0xbe, 0xd6, 0x88, 0xae, 0x3e,
  0x2e, 0x7e, 0x5d, 0xbf, 0x81, 0x8f, 0xe1, 0x3e, 0x59, 0xe2, 0xba, 0xbe,
  0x7d, 0xcb, 0x8c, 0x3b, 0x80, 0xd2, 0x07, 0x3f, 0x60, 0xeb, 0x2c, 0xbf,
  0xe0, 0xf3, 0x54, 0xbf, 0xa6, 0xf5, 0x2b, 0xbf, 0x56, 0x03, 0x3c, 0xbf,
  0xf0, 0x89, 0x6f, 0xbf, 0x85, 0x86, 0xce, 0x3e, 0x77, 0xab, 0x40, 0xbe,
  0x19, 0x9f, 0x94, 0x3c, 0xe2, 0xcf, 0x57, 0xbe, 0x18, 0x3c, 0x98, 0xbe,
  0x43, 0xd0, 0xe3, 0x3e, 0x84, 0x46, 0x07, 0xbf, 0xa6, 0x4d, 0x4c, 0x3e,
  0x4c, 0xf7, 0xc9, 0x3e, 0x3d, 0xf5, 0x84, 0x3d, 0x0f, 0xd3, 0x83, 0xbe,
  0x7c, 0xa2, 0x16, 0x3f, 0xc0, 0x54, 0x2a, 0x3f, 0xe3, 0x13, 0xf7, 0x3e,
  0x1b, 0x6e, 0x8c, 0x3e, 0xe6, 0x42, 0xec, 0xbe, 0x05, 0x3f, 0x5c, 0xbd,
  0x58, 0x17, 0x1c, 0x3f, 0x00, 0x00, 0x00, 0x00, 0x96, 0xfe, 0xff, 0xff,
  0x04, 0x00, 0x00, 0x00, 0x90, 0x00, 0x00, 0x00, 0x19, 0x02, 0x84, 0x3e,
  0xb3, 0x83, 0x1a, 0x3f, 0xd8, 0x9b, 0x30, 0xbf, 0xcc, 0x7b, 0x2e, 0xbe,
  0x4d, 0x3a, 0x39, 0xbf, 0x7c, 0x9e, 0x31, 0xbf, 0xa6, 0xa2, 0x1e, 0x3f,
  0x6a, 0x85, 0x76, 0x3e, 0xe2, 0xc5, 0x86, 0x3d, 0x9b, 0x95, 0x2f, 0x3c,
  0x84, 0x97, 0x92, 0x3f, 0xb4, 0x7d, 0x07, 0x3f, 0xca, 0x0d, 0xc0, 0xbe,
  0x6e, 0xd2, 0x5b, 0x3e, 0x53, 0xbd, 0x06, 0x3f, 0x46, 0xa2, 0x53, 0xbe,
  0x59, 0xfe, 0xd4, 0x3e, 0xcf, 0xa5, 0x9d, 0x3e, 0x1c, 0x70, 0x65, 0xbe,
  0x05, 0xc4, 0x07, 0xbf, 0x2a, 0xe5, 0x8f, 0x3e, 0xf6, 0xee, 0x9d, 0xbd,
  0x4d, 0xb3, 0x9b, 0xbd, 0x78, 0xa7, 0x38, 0x3f, 0x06, 0x11, 0xd3, 0x3d,
  0x1f, 0x25, 0x94, 0x3c, 0xc2, 0x0d, 0x5e, 0xbf, 0xed, 0x71, 0x28, 0x3f,
  0x8a, 0x07, 0xe6, 0xbe, 0x21, 0x10, 0xe1, 0x3e, 0xaf, 0xbe, 0xdf, 0x3d,
  0x26, 0x88, 0x91, 0x3e, 0x76, 0x98, 0x8a, 0x3e, 0xf3, 0x02, 0x8e, 0x3f,
  0x60, 0x5f, 0x63, 0x3e, 0x8b, 0x8c, 0x85, 0x3e, 0x00, 0x00, 0x00, 0x00,
  0x36, 0xff, 0xff, 0xff, 0x04, 0x00, 0x00, 0x00, 0x04, 0x00, 0x00, 0x00,
  0xe6, 0xf1, 0x8e, 0xbe, 0x46, 0xff, 0xff, 0xff, 0x04, 0x00, 0x00, 0x00,
  0x18, 0x00, 0x00, 0x00, 0xb2, 0xdb, 0xcd, 0xbb, 0xa1, 0x94, 0xbb, 0x3e,
  0x06, 0x03, 0x8d, 0x3d, 0xba, 0x83, 0x8b, 0xbd, 0x1f, 0xee, 0x9f, 0x3d,
  0xe4, 0xc6, 0x24, 0x3e, 0x00, 0x00, 0x00, 0x00, 0x00, 0x00, 0x00, 0x00,
  0x00, 0x00, 0x00, 0x00, 0x76, 0xff, 0xff, 0xff, 0x04, 0x00, 0x00, 0x00,
  0x40, 0x00, 0x00, 0x00, 0x78, 0x25, 0xa9, 0xbd, 0xc6, 0x04, 0x43, 0x3d,
  0xd3, 0x44, 0x3f, 0xbd, 0xf9, 0x87, 0xe1, 0x3d, 0x7e, 0xa3, 0x8e, 0x3e,
  0xe8, 0xb7, 0x1d, 0x3e, 0x36, 0x7f, 0x82, 0x3e, 0x44, 0xd4, 0x79, 0x3d,
  0x26, 0x59, 0x0f, 0x3c, 0x7c, 0xb0, 0xa6, 0x3e, 0x39, 0xb1, 0xaa, 0xbd,
  0x34, 0x1a, 0xd3, 0x3e, 0x1e, 0xaf, 0x12, 0x3e, 0x43, 0x64, 0x06, 0x3e,
  0x11, 0x5f, 0x19, 0xbd, 0xd5, 0x7a, 0x70, 0x3e, 0x00, 0x00, 0x00, 0x00,
  0xc6, 0xff, 0xff, 0xff, 0x04, 0x00, 0x00, 0x00, 0x20, 0x00, 0x00, 0x00,
  0xa5, 0x91, 0x5f, 0x3d, 0x7a, 0xb7, 0x0a, 0x3e, 0x0a, 0x2d, 0xbf, 0xbd,
  0x7f, 0x55, 0xbe, 0xbd, 0x24, 0xb2, 0x79, 0x3e, 0x19, 0xa8, 0xa3, 0x3e,
  0x53, 0xd8, 0x45, 0x3e, 0x86, 0xc5, 0x53, 0x3e, 0x00, 0x00, 0x00, 0x00,
  0x00, 0x00, 0x00, 0x00, 0x00, 0x00, 0x00, 0x00, 0x00, 0x00, 0x06, 0x00,
  0x08, 0x00, 0x04, 0x00, 0x06, 0x00, 0x00, 0x00, 0x04, 0x00, 0x00, 0x00,
  0x18, 0x00, 0x00, 0x00, 0x77, 0xb1, 0x60, 0x3e, 0x91, 0x38, 0x6e, 0x3c,
  0x85, 0xc7, 0xa9, 0x3a, 0x70, 0x57, 0x64, 0x3c, 0xee, 0xe7, 0x89, 0xbd,
  0x56, 0x31, 0x94, 0x3c, 0x00, 0x00, 0x00, 0x00, 0xb0, 0xf7, 0xff, 0xff,
  0x00, 0x00, 0x00, 0x00, 0x00, 0x00, 0x00, 0x00, 0x00, 0x00, 0x00, 0x00,
  0xc0, 0xf7, 0xff, 0xff, 0x00, 0x00, 0x00, 0x00, 0x00, 0x00, 0x00, 0x00,
  0x0f, 0x00, 0x00, 0x00, 0x4d, 0x4c, 0x49, 0x52, 0x20, 0x43, 0x6f, 0x6e,
  0x76, 0x65, 0x72, 0x74, 0x65, 0x64, 0x2e, 0x00, 0x01, 0x00, 0x00, 0x00,
  0x14, 0x00, 0x00, 0x00, 0x00, 0x00, 0x0e, 0x00, 0x18, 0x00, 0x04, 0x00,
  0x08, 0x00, 0x0c, 0x00, 0x10, 0x00, 0x14, 0x00, 0x0e, 0x00, 0x00, 0x00,
  0xa0, 0x01, 0x00, 0x00, 0x94, 0x01, 0x00, 0x00, 0x88, 0x01, 0x00, 0x00,
  0x14, 0x00, 0x00, 0x00, 0x04, 0x00, 0x00, 0x00, 0x04, 0x00, 0x00, 0x00,
  0x6d, 0x61, 0x69, 0x6e, 0x00, 0x00, 0x00, 0x00, 0x06, 0x00, 0x00, 0x00,
  0x30, 0x01, 0x00, 0x00, 0xe8, 0x00, 0x00, 0x00, 0xa0, 0x00, 0x00, 0x00,
  0x68, 0x00, 0x00, 0x00, 0x34, 0x00, 0x00, 0x00, 0x10, 0x00, 0x00, 0x00,
  0x00, 0x00, 0x0a, 0x00, 0x10, 0x00, 0x04, 0x00, 0x08, 0x00, 0x0c, 0x00,
  0x0a, 0x00, 0x00, 0x00, 0x01, 0x00, 0x00, 0x00, 0x10, 0x00, 0x00, 0x00,
  0x04, 0x00, 0x00, 0x00, 0x01, 0x00, 0x00, 0x00, 0x10, 0x00, 0x00, 0x00,
  0x01, 0x00, 0x00, 0x00, 0x0f, 0x00, 0x00, 0x00, 0x66, 0xff, 0xff, 0xff,
  0x00, 0x00, 0x00, 0x08, 0x18, 0x00, 0x00, 0x00, 0x0c, 0x00, 0x00, 0x00,
  0x04, 0x00, 0x00, 0x00, 0x78, 0xf8, 0xff, 0xff, 0x01, 0x00, 0x00, 0x00,
  0x0f, 0x00, 0x00, 0x00, 0x03, 0x00, 0x00, 0x00, 0x0e, 0x00, 0x00, 0x00,
  0x0a, 0x00, 0x00, 0x00, 0x05, 0x00, 0x00, 0x00, 0x96, 0xff, 0xff, 0xff,
  0x00, 0x00, 0x00, 0x08, 0x1c, 0x00, 0x00, 0x00, 0x10, 0x00, 0x00, 0x00,
  0x04, 0x00, 0x00, 0x00, 0x42, 0xff, 0xff, 0xff, 0x00, 0x00, 0x00, 0x01,
  0x01, 0x00, 0x00, 0x00, 0x0e, 0x00, 0x00, 0x00, 0x03, 0x00, 0x00, 0x00,
  0x0d, 0x00, 0x00, 0x00, 0x09, 0x00, 0x00, 0x00, 0x04, 0x00, 0x00, 0x00,
  0xca, 0xff, 0xff, 0xff, 0x00, 0x00, 0x00, 0x08, 0x1c, 0x00, 0x00, 0x00,
  0x10, 0x00, 0x00, 0x00, 0x04, 0x00, 0x00, 0x00, 0x76, 0xff, 0xff, 0xff,
  0x00, 0x00, 0x00, 0x01, 0x01, 0x00, 0x00, 0x00, 0x0d, 0x00, 0x00, 0x00,
  0x03, 0x00, 0x00, 0x00, 0x0c, 0x00, 0x00, 0x00, 0x08, 0x00, 0x00, 0x00,
  0x03, 0x00, 0x00, 0x00, 0x00, 0x00, 0x0e, 0x00, 0x14, 0x00, 0x00, 0x00,
  0x08, 0x00, 0x0c, 0x00, 0x07, 0x00, 0x10, 0x00, 0x0e, 0x00, 0x00, 0x00,
  0x00, 0x00, 0x00, 0x08, 0x1c, 0x00, 0x00, 0x00, 0x10, 0x00, 0x00, 0x00,
  0x04, 0x00, 0x00, 0x00, 0xba, 0xff, 0xff, 0xff, 0x00, 0x00, 0x00, 0x01,
  0x01, 0x00, 0x00, 0x00, 0x0c, 0x00, 0x00, 0x00, 0x03, 0x00, 0x00, 0x00,
  0x0b, 0x00, 0x00, 0x00, 0x07, 0x00, 0x00, 0x00, 0x02, 0x00, 0x00, 0x00,
  0x00, 0x00, 0x0e, 0x00, 0x16, 0x00, 0x00, 0x00, 0x08, 0x00, 0x0c, 0x00,
  0x07, 0x00, 0x10, 0x00, 0x0e, 0x00, 0x00, 0x00, 0x00, 0x00, 0x00, 0x08,
  0x24, 0x00, 0x00, 0x00, 0x18, 0x00, 0x00, 0x00, 0x0c, 0x00, 0x00, 0x00,
  0x00, 0x00, 0x06, 0x00, 0x08, 0x00, 0x07, 0x00, 0x06, 0x00, 0x00, 0x00,
  0x00, 0x00, 0x00, 0x01, 0x01, 0x00, 0x00, 0x00, 0x0b, 0x00, 0x00, 0x00,
  0x03, 0x00, 0x00, 0x00, 0x00, 0x00, 0x00, 0x00, 0x06, 0x00, 0x00, 0x00,
  0x01, 0x00, 0x00, 0x00, 0x01, 0x00, 0x00, 0x00, 0x10, 0x00, 0x00, 0x00,
  0x01, 0x00, 0x00, 0x00, 0x00, 0x00, 0x00, 0x00, 0x11, 0x00, 0x00, 0x00,
  0x3c, 0x06, 0x00, 0x00, 0xcc, 0x05, 0x00, 0x00, 0x60, 0x05, 0x00, 0x00,
  0x04, 0x05, 0x00, 0x00, 0xa8, 0x04, 0x00, 0x00, 0x4c, 0x04, 0x00, 0x00,
  0x08, 0x04, 0x00, 0x00, 0xc0, 0x03, 0x00, 0x00, 0x78, 0x03, 0x00, 0x00,
  0x30, 0x03, 0x00, 0x00, 0xe8, 0x02, 0x00, 0x00, 0x64, 0x02, 0x00, 0x00,
  0xd8, 0x01, 0x00, 0x00, 0x4c, 0x01, 0x00, 0x00, 0xc0, 0x00, 0x00, 0x00,
  0x4c, 0x00, 0x00, 0x00, 0x04, 0x00, 0x00, 0x00, 0x1c, 0xfa, 0xff, 0xff,
  0x34, 0x00, 0x00, 0x00, 0x11, 0x00, 0x00, 0x00, 0x1c, 0x00, 0x00, 0x00,
  0x14, 0x00, 0x00, 0x00, 0x04, 0x00, 0x00, 0x00, 0x02, 0x00, 0x00, 0x00,
  0xff, 0xff, 0xff, 0xff, 0x01, 0x00, 0x00, 0x00, 0x08, 0xfa, 0xff, 0xff,
  0x08, 0x00, 0x00, 0x00, 0x49, 0x64, 0x65, 0x6e, 0x74, 0x69, 0x74, 0x79,
  0x00, 0x00, 0x00, 0x00, 0x02, 0x00, 0x00, 0x00, 0x01, 0x00, 0x00, 0x00,
  0x01, 0x00, 0x00, 0x00, 0x60, 0xfa, 0xff, 0xff, 0x60, 0x00, 0x00, 0x00,
  0x10, 0x00, 0x00, 0x00, 0x1c, 0x00, 0x00, 0x00, 0x14, 0x00, 0x00, 0x00,
  0x04, 0x00, 0x00, 0x00, 0x02, 0x00, 0x00, 0x00, 0xff, 0xff, 0xff, 0xff,
  0x01, 0x00, 0x00, 0x00, 0x4c, 0xfa, 0xff, 0xff, 0x34, 0x00, 0x00, 0x00,
  0x73, 0x65, 0x71, 0x75, 0x65, 0x6e, 0x74, 0x69, 0x61, 0x6c, 0x2f, 0x64,
  0x65, 0x6e, 0x73, 0x65, 0x5f, 0x34, 0x2f, 0x4d, 0x61, 0x74, 0x4d, 0x75,
  0x6c, 0x3b, 0x73, 0x65, 0x71, 0x75, 0x65, 0x6e, 0x74, 0x69, 0x61, 0x6c,
  0x2f, 0x64, 0x65, 0x6e, 0x73, 0x65, 0x5f, 0x34, 0x2f, 0x42, 0x69, 0x61,
  0x73, 0x41, 0x64, 0x64, 0x00, 0x00, 0x00, 0x00, 0x02, 0x00, 0x00, 0x00,
  0x01, 0x00, 0x00, 0x00, 0x01, 0x00, 0x00, 0x00, 0xd0, 0xfa, 0xff, 0xff,
  0x78, 0x00, 0x00, 0x00, 0x0f, 0x00, 0x00, 0x00, 0x1c, 0x00, 0x00, 0x00,
  0x14, 0x00, 0x00, 0x00, 0x04, 0x00, 0x00, 0x00, 0x02, 0x00, 0x00, 0x00,
  0xff, 0xff, 0xff, 0xff, 0x06, 0x00, 0x00, 0x00, 0xbc, 0xfa, 0xff, 0xff,
  0x4c, 0x00, 0x00, 0x00, 0x73, 0x65, 0x71, 0x75, 0x65, 0x6e, 0x74, 0x69,
  0x61, 0x6c, 0x2f, 0x64, 0x65, 0x6e, 0x73, 0x65, 0x5f, 0x33, 0x2f, 0x4d,
  0x61, 0x74, 0x4d, 0x75, 0x6c, 0x3b, 0x73, 0x65, 0x71, 0x75, 0x65, 0x6e,
  0x74, 0x69, 0x61, 0x6c, 0x2f, 0x64, 0x65, 0x6e, 0x73, 0x65, 0x5f, 0x33,
  0x2f, 0x52, 0x65, 0x6c, 0x75, 0x3b, 0x73, 0x65, 0x71, 0x75, 0x65, 0x6e,
  0x74, 0x69, 0x61, 0x6c, 0x2f, 0x64, 0x65, 0x6e, 0x73, 0x65, 0x5f, 0x33,
  0x2f, 0x42, 0x69, 0x61, 0x73, 0x41, 0x64, 0x64, 0x00, 0x00, 0x00, 0x00,
  0x02, 0x00, 0x00, 0x00, 0x01, 0x00, 0x00, 0x00, 0x06, 0x00, 0x00, 0x00,
  0x58, 0xfb, 0xff, 0xff, 0x78, 0x00, 0x00, 0x00, 0x0e, 0x00, 0x00, 0x00,
  0x1c, 0x00, 0x00, 0x00, 0x14, 0x00, 0x00, 0x00, 0x04, 0x00, 0x00, 0x00,
  0x02, 0x00, 0x00, 0x00, 0xff, 0xff, 0xff, 0xff, 0x10, 0x00, 0x00, 0x00,
  0x44, 0xfb, 0xff, 0xff, 0x4c, 0x00, 0x00, 0x00, 0x73, 0x65, 0x71, 0x75,
  0x65, 0x6e, 0x74, 0x69, 0x61, 0x6c, 0x2f, 0x64, 0x65, 0x6e, 0x73, 0x65,
  0x5f, 0x32, 0x2f, 0x4d, 0x61, 0x74, 0x4d, 0x75, 0x6c, 0x3b, 0x73, 0x65,
  0x71, 0x75, 0x65, 0x6e, 0x74, 0x69, 0x61, 0x6c, 0x2f, 0x64, 0x65, 0x6e,
  0x73, 0x65, 0x5f, 0x32, 0x2f, 0x52, 0x65, 0x6c, 0x75, 0x3b, 0x73, 0x65,
  0x71, 0x75, 0x65, 0x6e, 0x74, 0x69, 0x61, 0x6c, 0x2f, 0x64, 0x65, 0x6e,
  0x73, 0x65, 0x5f, 0x32, 0x2f, 0x42, 0x69, 0x61, 0x73, 0x41, 0x64, 0x64,
  0x00, 0x00, 0x00, 0x00, 0x02, 0x00, 0x00, 0x00, 0x01, 0x00, 0x00, 0x00,
  0x10, 0x00, 0x00, 0x00, 0xe0, 0xfb, 0xff, 0xff, 0x78, 0x00, 0x00, 0x00,
  0x0d, 0x00, 0x00, 0x00, 0x1c, 0x00, 0x00, 0x00, 0x14, 0x00, 0x00, 0x00,
  0x04, 0x00, 0x00, 0x00, 0x02, 0x00, 0x00, 0x00, 0xff, 0xff, 0xff, 0xff,
  0x08, 0x00, 0x00, 0x00, 0xcc, 0xfb, 0xff, 0xff, 0x4c, 0x00, 0x00, 0x00,
  0x73, 0x65, 0x71, 0x75, 0x65, 0x6e, 0x74, 0x69, 0x61, 0x6c, 0x2f, 0x64,
  0x65, 0x6e, 0x73, 0x65, 0x5f, 0x31, 0x2f, 0x4d, 0x61, 0x74, 0x4d, 0x75,
  0x6c, 0x3b, 0x73, 0x65, 0x71, 0x75, 0x65, 0x6e, 0x74, 0x69, 0x61, 0x6c,
  0x2f, 0x64, 0x65, 0x6e, 0x73, 0x65, 0x5f, 0x31, 0x2f, 0x52, 0x65, 0x6c,
  0x75, 0x3b, 0x73, 0x65, 0x71, 0x75, 0x65, 0x6e, 0x74, 0x69, 0x61, 0x6c,
  0x2f, 0x64, 0x65, 0x6e, 0x73, 0x65, 0x5f, 0x31, 0x2f, 0x42, 0x69, 0x61,
  0x73, 0x41, 0x64, 0x64, 0x00, 0x00, 0x00, 0x00, 0x02, 0x00, 0x00, 0x00,
  0x01, 0x00, 0x00, 0x00, 0x08, 0x00, 0x00, 0x00, 0x68, 0xfc, 0xff, 0xff,
  0x70, 0x00, 0x00, 0x00, 0x0c, 0x00, 0x00, 0x00, 0x1c, 0x00, 0x00, 0x00,
  0x14, 0x00, 0x00, 0x00, 0x04, 0x00, 0x00, 0x00, 0x02, 0x00, 0x00, 0x00,
  0xff, 0xff, 0xff, 0xff, 0x06, 0x00, 0x00, 0x00, 0x54, 0xfc, 0xff, 0xff,
  0x46, 0x00, 0x00, 0x00, 0x73, 0x65, 0x71, 0x75, 0x65, 0x6e, 0x74, 0x69,
  0x61, 0x6c, 0x2f, 0x64, 0x65, 0x6e, 0x73, 0x65, 0x2f, 0x4d, 0x61, 0x74,
  0x4d, 0x75, 0x6c, 0x3b, 0x73, 0x65, 0x71, 0x75, 0x65, 0x6e, 0x74, 0x69,
  0x61, 0x6c, 0x2f, 0x64, 0x65, 0x6e, 0x73, 0x65, 0x2f, 0x52, 0x65, 0x6c,
  0x75, 0x3b, 0x73, 0x65, 0x71, 0x75, 0x65, 0x6e, 0x74, 0x69, 0x61, 0x6c,
  0x2f, 0x64, 0x65, 0x6e, 0x73, 0x65, 0x2f, 0x42, 0x69, 0x61, 0x73, 0x41,
  0x64, 0x64, 0x00, 0x00, 0x02, 0x00, 0x00, 0x00, 0x01, 0x00, 0x00, 0x00,
  0x06, 0x00, 0x00, 0x00, 0x4e, 0xfd, 0xff, 0xff, 0x34, 0x00, 0x00, 0x00,
  0x0b, 0x00, 0x00, 0x00, 0x0c, 0x00, 0x00, 0x00, 0x04, 0x00, 0x00, 0x00,
  0xc4, 0xfc, 0xff, 0xff, 0x19, 0x00, 0x00, 0x00, 0x73, 0x65, 0x71, 0x75,
  0x65, 0x6e, 0x74, 0x69, 0x61, 0x6c, 0x2f, 0x64, 0x65, 0x6e, 0x73, 0x65,
  0x5f, 0x34, 0x2f, 0x4d, 0x61, 0x74, 0x4d, 0x75, 0x6c, 0x00, 0x00, 0x00,
  0x02, 0x00, 0x00, 0x00, 0x01, 0x00, 0x00, 0x00, 0x06, 0x00, 0x00, 0x00,
  0x92, 0xfd, 0xff, 0xff, 0x34, 0x00, 0x00, 0x00, 0x0a, 0x00, 0x00, 0x00,
  0x0c, 0x00, 0x00, 0x00, 0x04, 0x00, 0x00, 0x00, 0x08, 0xfd, 0xff, 0xff,
  0x19, 0x00, 0x00, 0x00, 0x73, 0x65, 0x71, 0x75, 0x65, 0x6e, 0x74, 0x69,
  0x61, 0x6c, 0x2f, 0x64, 0x65, 0x6e, 0x73, 0x65, 0x5f, 0x33, 0x2f, 0x4d,
  0x61, 0x74, 0x4d, 0x75, 0x6c, 0x00, 0x00, 0x00, 0x02, 0x00, 0x00, 0x00,
  0x06, 0x00, 0x00, 0x00, 0x10, 0x00, 0x00, 0x00, 0xd6, 0xfd, 0xff, 0xff,
  0x34, 0x00, 0x00, 0x00, 0x09, 0x00, 0x00, 0x00, 0x0c, 0x00, 0x00, 0x00,
  0x04, 0x00, 0x00, 0x00, 0x4c, 0xfd, 0xff, 0xff, 0x19, 0x00, 0x00, 0x00,
  0x73, 0x65, 0x71, 0x75, 0x65, 0x6e, 0x74, 0x69, 0x61, 0x6c, 0x2f, 0x64,
  0x65, 0x6e, 0x73, 0x65, 0x5f, 0x32, 0x2f, 0x4d, 0x61, 0x74, 0x4d, 0x75,
  0x6c, 0x00, 0x00, 0x00, 0x02, 0x00, 0x00, 0x00, 0x10, 0x00, 0x00, 0x00,
  0x08, 0x00, 0x00, 0x00, 0x1a, 0xfe, 0xff, 0xff, 0x34, 0x00, 0x00, 0x00,
  0x08, 0x00, 0x00, 0x00, 0x0c, 0x00, 0x00, 0x00, 0x04, 0x00, 0x00, 0x00,
  0x90, 0xfd, 0xff, 0xff, 0x19, 0x00, 0x00, 0x00, 0x73, 0x65, 0x71, 0x75,
  0x65, 0x6e, 0x74, 0x69, 0x61, 0x6c, 0x2f, 0x64, 0x65, 0x6e, 0x73, 0x65,
  0x5f, 0x31, 0x2f, 0x4d, 0x61, 0x74, 0x4d, 0x75, 0x6c, 0x00, 0x00, 0x00,
  0x02, 0x00, 0x00, 0x00, 0x08, 0x00, 0x00, 0x00, 0x06, 0x00, 0x00, 0x00,
  0x5e, 0xfe, 0xff, 0xff, 0x30, 0x00, 0x00, 0x00, 0x07, 0x00, 0x00, 0x00,
  0x0c, 0x00, 0x00, 0x00, 0x04, 0x00, 0x00, 0x00, 0xd4, 0xfd, 0xff, 0xff,
  0x17, 0x00, 0x00, 0x00, 0x73, 0x65, 0x71, 0x75, 0x65, 0x6e, 0x74, 0x69,
  0x61, 0x6c, 0x2f, 0x64, 0x65, 0x6e, 0x73, 0x65, 0x2f, 0x4d, 0x61, 0x74,
  0x4d, 0x75, 0x6c, 0x00, 0x02, 0x00, 0x00, 0x00, 0x06, 0x00, 0x00, 0x00,
  0x06, 0x00, 0x00, 0x00, 0x9e, 0xfe, 0xff, 0xff, 0x4c, 0x00, 0x00, 0x00,
  0x06, 0x00, 0x00, 0x00, 0x0c, 0x00, 0x00, 0x00, 0x04, 0x00, 0x00, 0x00,
  0x14, 0xfe, 0xff, 0xff, 0x32, 0x00, 0x00, 0x00, 0x73, 0x65, 0x71, 0x75,
  0x65, 0x6e, 0x74, 0x69, 0x61, 0x6c, 0x2f, 0x64, 0x65, 0x6e, 0x73, 0x65,
  0x5f, 0x34, 0x2f, 0x42, 0x69, 0x61, 0x73, 0x41, 0x64, 0x64, 0x2f, 0x52,
  0x65, 0x61, 0x64, 0x56, 0x61, 0x72, 0x69, 0x61, 0x62, 0x6c, 0x65, 0x4f,
  0x70, 0x2f, 0x72, 0x65, 0x73, 0x6f, 0x75, 0x72, 0x63, 0x65, 0x00, 0x00,
  0x01, 0x00, 0x00, 0x00, 0x01, 0x00, 0x00, 0x00, 0xf6, 0xfe, 0xff, 0xff,
  0x4c, 0x00, 0x00, 0x00, 0x05, 0x00, 0x00, 0x00, 0x0c, 0x00, 0x00, 0x00,
  0x04, 0x00, 0x00, 0x00, 0x6c, 0xfe, 0xff, 0xff, 0x32, 0x00, 0x00, 0x00,
  0x73, 0x65, 0x71, 0x75, 0x65, 0x6e, 0x74, 0x69, 0x61, 0x6c, 0x2f, 0x64,
  0x65, 0x6e, 0x73, 0x65, 0x5f, 0x33, 0x2f, 0x42, 0x69, 0x61, 0x73, 0x41,
  0x64, 0x64, 0x2f, 0x52, 0x65, 0x61, 0x64, 0x56, 0x61, 0x72, 0x69, 0x61,
  0x62, 0x6c, 0x65, 0x4f, 0x70, 0x2f, 0x72, 0x65, 0x73, 0x6f, 0x75, 0x72,
  0x63, 0x65, 0x00, 0x00, 0x01, 0x00, 0x00, 0x00, 0x06, 0x00, 0x00, 0x00,
  0x4e, 0xff, 0xff, 0xff, 0x4c, 0x00, 0x00, 0x00, 0x04, 0x00, 0x00, 0x00,
  0x0c, 0x00, 0x00, 0x00, 0x04, 0x00, 0x00, 0x00, 0xc4, 0xfe, 0xff, 0xff,
  0x32, 0x00, 0x00, 0x00, 0x73, 0x65, 0x71, 0x75, 0x65, 0x6e, 0x74, 0x69,
  0x61, 0x6c, 0x2f, 0x64, 0x65, 0x6e, 0x73, 0x65, 0x5f, 0x32, 0x2f, 0x42,
  0x69, 0x61, 0x73, 0x41, 0x64, 0x64, 0x2f, 0x52, 0x65, 0x61, 0x64, 0x56,
  0x61, 0x72, 0x69, 0x61, 0x62, 0x6c, 0x65, 0x4f, 0x70, 0x2f, 0x72, 0x65,
  0x73, 0x6f, 0x75, 0x72, 0x63, 0x65, 0x00, 0x00, 0x01, 0x00, 0x00, 0x00,
  0x10, 0x00, 0x00, 0x00, 0xa6, 0xff, 0xff, 0xff, 0x4c, 0x00, 0x00, 0x00,
  0x03, 0x00, 0x00, 0x00, 0x0c, 0x00, 0x00, 0x00, 0x04, 0x00, 0x00, 0x00,
  0x1c, 0xff, 0xff, 0xff, 0x32, 0x00, 0x00, 0x00, 0x73, 0x65, 0x71, 0x75,
  0x65, 0x6e, 0x74, 0x69, 0x61, 0x6c, 0x2f, 0x64, 0x65, 0x6e, 0x73, 0x65,
  0x5f, 0x31, 0x2f, 0x42, 0x69, 0x61, 0x73, 0x41, 0x64, 0x64, 0x2f, 0x52,
  0x65, 0x61, 0x64, 0x56, 0x61, 0x72, 0x69, 0x61, 0x62, 0x6c, 0x65, 0x4f,
  0x70, 0x2f, 0x72, 0x65, 0x73, 0x6f, 0x75, 0x72, 0x63, 0x65, 0x00, 0x00,
  0x01, 0x00, 0x00, 0x00, 0x08, 0x00, 0x00, 0x00, 0x00, 0x00, 0x0e, 0x00,
  0x14, 0x00, 0x04, 0x00, 0x00, 0x00, 0x08, 0x00, 0x0c, 0x00, 0x10, 0x00,
  0x0e, 0x00, 0x00, 0x00, 0x4c, 0x00, 0x00, 0x00, 0x02, 0x00, 0x00, 0x00,
  0x0c, 0x00, 0x00, 0x00, 0x04, 0x00, 0x00, 0x00, 0x84, 0xff, 0xff, 0xff,
  0x30, 0x00, 0x00, 0x00, 0x73, 0x65, 0x71, 0x75, 0x65, 0x6e, 0x74, 0x69,
  0x61, 0x6c, 0x2f, 0x64, 0x65, 0x6e, 0x73, 0x65, 0x2f, 0x42, 0x69, 0x61,
  0x73, 0x41, 0x64, 0x64, 0x2f, 0x52, 0x65, 0x61, 0x64, 0x56, 0x61, 0x72,
  0x69, 0x61, 0x62, 0x6c, 0x65, 0x4f, 0x70, 0x2f, 0x72, 0x65, 0x73, 0x6f,
  0x75, 0x72, 0x63, 0x65, 0x00, 0x00, 0x00, 0x00, 0x01, 0x00, 0x00, 0x00,
  0x06, 0x00, 0x00, 0x00, 0x14, 0x00, 0x18, 0x00, 0x04, 0x00, 0x00, 0x00,
  0x08, 0x00, 0x0c, 0x00, 0x10, 0x00, 0x00, 0x00, 0x00, 0x00, 0x14, 0x00,
  0x14, 0x00, 0x00, 0x00, 0x38, 0x00, 0x00, 0x00, 0x01, 0x00, 0x00, 0x00,
  0x20, 0x00, 0x00, 0x00, 0x18, 0x00, 0x00, 0x00, 0x04, 0x00, 0x00, 0x00,
  0x02, 0x00, 0x00, 0x00, 0xff, 0xff, 0xff, 0xff, 0x06, 0x00, 0x00, 0x00,
  0x04, 0x00, 0x04, 0x00, 0x04, 0x00, 0x00, 0x00, 0x0b, 0x00, 0x00, 0x00,
  0x64, 0x65, 0x6e, 0x73, 0x65, 0x5f, 0x69, 0x6e, 0x70, 0x75, 0x74, 0x00,
  0x02, 0x00, 0x00, 0x00, 0x01, 0x00, 0x00, 0x00, 0x06, 0x00, 0x00, 0x00,
  0x02, 0x00, 0x00, 0x00, 0x2c, 0x00, 0x00, 0x00, 0x10, 0x00, 0x00, 0x00,
  0x0c, 0x00, 0x0c, 0x00, 0x07, 0x00, 0x00, 0x00, 0x00, 0x00, 0x08, 0x00,
  0x0c, 0x00, 0x00, 0x00, 0x00, 0x00, 0x00, 0x0e, 0x0e, 0x00, 0x00, 0x00,
  0x0c, 0x00, 0x10, 0x00, 0x07, 0x00, 0x00, 0x00, 0x08, 0x00, 0x0c, 0x00,
  0x0c, 0x00, 0x00, 0x00, 0x00, 0x00, 0x00, 0x09, 0x09, 0x00, 0x00, 0x00,
  0x09, 0x00, 0x00, 0x00
};

#endif //ROAD_ANALYTICS_MODEL_EXTREME_END_HARDWARE_H